031c
fddc
0146
02ea
febf
00fc
fffd
ffb8
0154
fc96
007c
0006
0066
01cb
0473
00fb
feef
ff4f
0022
fe74
004b
03b3
fc83
fd42
0408
fe8f
ff79
014d
ff92
04fa
00fc
fde1
0213
ff69
fea8
fe70
000e
01da
ff06
011e
0307
fcb6
fd70
012d
0293
0419
ffc9
00a0
0078
fcbb
02e7
0300
ff42
ffff
fc9f
fef3
04a5
0166
ff7a
0264
0014
01c7
01e1
ff70
0008
fdf9
ffc4
0197
fd31
ff74
fe1f
0130
0146
fc01
feae
fd31
ff04
036e
0173
fd80
0372
fe54
00f3
ff84
ff83
02a6
ff62
01dd
0232
fe80
0128
fe70
003e
fe5f
03f9
fe7d
009d
feb7
0043
037e
00f4
03e6
fe15
00a6
0470
019b
fc23
0052
fcba
0517
0248
fe71
00fd
fc26
03db
0298
0178
0392
ffb0
025f
ffa1
fd1e
0027
00ac
0106
0235
ff68
ff97
0272
01c6
feb1
feed
ff50
fe4a
0228
0092
014b
fc3f
fec0
fdc7
fd4e
fed1
0228
0299
01c0
008a
ffbd
0133
05ac
025c
fb95
0241
fe58
ff66
0195
ff1d
042b
0122
0251
fe14
00f2
00d1
002a
0191
fe68
01ac
fc7f
ffa2
02ff
fd0d
ffa7
ffe3
01c5
01eb
0385
fff2
0029
ff39
0034
0070
00ee
0522
fe80
0641
0388
f947
fbc4
fcc3
0186
0422
025b
fcc7
0407
fe2d
ff91
0089
015a
0064
fdcd
fc21
fc59
fc45
fd38
fe60
ffeb
010b
0183
fef1
0361
0267
ff12
febd
fc9f
01ea
0115
ff80
01b3
f5bc
fd59
fd21
ff2e
00dc
00cf
fe6e
0369
fe31
022e
028e
fccf
0395
0157
0011
00d3
feb4
0123
0130
fe2e
02af
00a5
feb3
00f1
ffc4
0351
02f1
fee4
03f3
fefc
0192
05cb
01b3
fd67
0100
002c
fd17
02ab
fd8c
0418
ff65
002b
00a6
ffd9
0283
ff13
00d2
01e7
fea6
fef6
fc2c
ff81
04fb
016a
ffd1
0122
0147
ff56
fe57
024e
0027
0265
fc14
03c3
fd29
ff7d
0035
faeb
0139
ffbc
ff9d
ff44
fe55
ff48
0034
0081
0162
fb8d
03d9
0251
fddf
ff5d
005a
006d
00e6
0634
fca5
017c
fcec
0176
0565
014c
00f3
fd0d
fecc
0195
ff94
fe02
ffaf
017a
0267
03b0
ff7e
02e8
ff9c
0068
0210
ffbe
02d4
fef7
ff2d
00db
fd5d
fbb2
fd7a
00ba
0666
fe62
ff0e
027d
fdea
03ba
018b
ffe3
fdf4
f9c7
fdc2
0461
fda2
052a
025c
fd8a
fff8
01d7
fe74
02fc
fe8f
03a7
fe9e
014f
012f
fab0
ff2b
01f2
fd3a
fcd1
02e0
00a8
0324
025b
fd34
010c
ff75
0389
0203
fe5c
0101
fefc
02b6
03eb
ff54
fdb4
fe2e
fdf2
009d
032c
fca9
01cc
0305
ffc0
fdee
fe60
02f1
fb14
0368
0297
fe22
ffb1
ff27
0118
027a
0109
f9e7
02f9
fe19
018a
0002
fe2d
03df
fea5
00de
057d
fd2b
feaf
ffbd
037e
ffb2
0246
fc9c
ff6f
ff6d
00c9
ff34
fd84
02ef
fcff
03b9
0060
fb90
fd88
0106
006a
029e
03ba
fcd8
0206
001a
0084
fd14
0033
fe30
fb7b
ff66
04b8
fef6
01d9
0067
fe2e
00e5
029c
fff7
04a7
0042
01e0
03b0
feab
ff45
fca6
ff06
028e
ffbc
ff7c
0147
0109
049c
fe67
fbab
0064
fc19
00aa
feac
0083
02b0
fc76
ff46
041b
fbff
fd35
ffe4
ff57
0046
00aa
fcba
038b
0054
01a2
0227
fe57
0247
fdf1
fcbc
009a
ffc5
fb49
fe2e
02cc
0417
0401
fcc6
ff90
fc5b
0072
00a9
ff37
0165
fc5b
031a
02fb
ff4c
fc4c
ffe9
ff89
022e
0136
fe57
00b4
ff86
037d
033e
011d
0562
fd63
0306
01d6
fdb2
037b
02db
fdb0
ffe4
01cb
027c
0190
fea3
0054
036d
01c2
0235
fd33
fecf
0324
fbc4
0484
0188
0212
fd71
ff67
00c7
0111
fda6
02d5
0461
0068
068f
0065
feec
ffcb
ff27
ff2b
037b
feb8
002d
ffdc
00f0
ffab
f972
fff2
ffcb
01e6
031d
03b4
ffe5
ff0f
fc5c
00c6
feb0
fa6b
ffa2
01ae
ff58
026c
00ab
0108
fd51
fc51
ff78
fec0
fe9c
0825
fefe
fc44
fdf5
fd1e
04ef
027a
ff1b
ffd3
fd99
034a
001e
fdee
fee6
ff62
0056
04fd
005a
0046
00f4
fd2c
ffe9
0285
0002
ff9b
fb9c
013b
fd8a
fbba
0446
0078
0007
fe38
00ee
fd6c
fd2d
005b
019b
04c6
ff60
fc9b
ff16
0110
0263
009f
0419
ff13
0140
fc12
fd76
fea5
011c
01cd
fec5
0266
0200
0197
0086
0114
0378
0149
020d
fdbd
feee
0216
fcef
fc55
0119
01c4
02cc
01e1
0086
01ea
fedd
055e
0156
ff76
0248
ffc5
0175
0379
007d
ff31
febf
fd85
02a7
03a6
fdf6
ff0e
fd73
050f
fe9b
0090
050b
0054
01ca
003d
0019
ff6a
01a2
fda9
01b0
01d0
037d
0584
fdd7
fe00
01b0
0085
01b9
fb3a
0086
02de
fb80
ff42
fe9b
0113
00b5
0486
fd7d
0289
ff98
0303
03e3
0260
fdde
fe07
00c7
016d
fc99
fc65
0353
fd3d
00a3
fe83
fb47
0136
ffc5
0173
0007
03c5
0148
ffdc
ff0b
fff1
fcfb
fd80
fdf0
ff79
04bd
058a
01a8
00ca
feca
03b6
fd21
009d
ff08
fc22
fe05
0567
016b
ff52
0259
fdd3
ffb6
02ac
fe90
00e1
fd42
ffc6
0131
01da
ffc2
fb93
00c5
045d
fde9
0244
01e0
00b7
026a
041d
fea6
008e
fe13
00a1
03e3
feae
ff66
fa3f
ff74
0008
fe61
fdae
05e4
ff0b
01bb
0163
fdc7
fe7f
fdfc
0427
fe57
ffbf
03b6
ff8a
015e
0425
fe19
fe0e
0186
fdf7
ffc8
0115
fece
fce4
fa60
0195
fb3d
0188
ff4d
004b
fd37
0660
0385
013f
0498
fc98
ff73
038c
ff05
03c1
fffe
00d3
0066
fe34
0360
fe53
fe7b
fee9
fd1a
fd38
013a
fd46
01cf
02c0
fc49
02c7
ff6d
02eb
02e4
02c9
03ee
fec7
0136
0020
fe81
f96c
ff4f
feaa
0357
0181
fde8
fb7e
fda1
007d
01e0
fc50
04e3
01d2
014a
ff40
ffe5
fc42
fda6
0150
fffb
086c
011a
01a9
ff2a
fe5c
ff05
fcce
01e2
fbc4
ff7a
ff89
fc67
ff5b
ff4c
0213
040e
0202
fcfb
ff53
ff8b
0087
0436
0020
fe53
fb3f
05af
00c6
ffa6
0051
0014
fbb6
febc
005d
fa8e
010f
0000
fe71
013a
fb6d
0233
01ed
ffd0
fc00
fd68
fc21
fba8
0315
063c
0215
00db
00ce
fed8
ffa3
011e
0037
0195
fed0
ffa4
0201
ffb5
0104
01a4
0073
035f
02d3
fd1f
034a
fff3
001f
024e
00c0
0051
ff5e
0067
ffe2
fd2b
fea1
fe44
fc76
0455
0244
fb72
fc3c
fd53
01f4
ffb1
fe94
00d7
fe11
04ec
0247
fbcf
fdd4
01ba
ff1b
ffc6
0552
fe7c
02eb
fedf
ff56
00b8
fe28
032a
fd20
0165
03f5
fdcf
fbed
fff0
0033
009a
0240
fa97
fe4f
feb9
0171
004b
fb51
025d
fb70
fce0
0348
0088
ff7f
016c
00fc
003f
0177
01e2
010b
020e
fffb
0037
0425
085d
fea3
04c7
fcf0
fd72
fb5d
ff9b
0066
009a
fec5
008f
016e
fe0a
0010
01eb
fe4d
01e4
0038
0222
02b3
01dd
fb99
00a4
0040
02e2
01b4
fbbb
