ff17
fd3e
ff9f
0029
fd96
01c2
ffe3
ffe0
ff5b
ff11
ffbd
ff66
ff1d
feb8
ff5f
01a1
febf
ff46
01e5
fe01
fdeb
fee8
fc91
ffa1
0350
fed7
fd41
00e8
fd95
fe14
fd6a
feb9
fda7
fde5
009a
ff10
fec6
013d
0102
007a
fdf9
00c1
0074
ff7c
fd78
005d
ff82
fe9d
fe63
00de
ffe5
fe9e
fea4
ff31
00cd
fee6
fd36
0243
fe9e
01b8
0123
00b8
fe94
0143
0088
fde4
0210
ffcf
0040
0205
fe49
ffa5
01d6
fe41
ff41
01a9
00f4
ff23
fdd6
0102
ff99
0046
009d
0157
0037
011e
01c6
ff0f
fd16
ffcd
01fb
00c8
03c1
feb6
ffda
ff55
0093
0069
0016
0351
03e0
0032
0459
0086
ffca
fdec
ff2c
01da
0125
0231
0284
ff5d
ffbc
010b
03cb
ffd7
03f7
0734
ffcc
fe32
047e
ff84
fdd1
0180
ff1b
fdaa
03af
fff9
ff23
fec3
01b7
ff79
02c2
00ca
00b6
ffa0
feed
03ce
ff3a
00bd
ff58
fcaf
fe16
fea5
ffdd
fd4d
025f
ffdc
ff51
01b6
ffb8
fe3f
00e1
0191
00db
0255
0111
02cd
012e
02aa
0054
fefb
016f
0136
fe0f
fe5e
fec6
0006
feca
fec8
fe49
01b2
fe66
fe84
fce5
0447
feab
01fb
fc01
00e1
003d
fec9
02e0
045c
fefe
0290
018d
0141
003d
ffad
01ee
ff0b
0094
005b
01d4
ffa5
0070
fecf
fdbd
ff15
0003
0268
fd4c
029f
fe9b
fe8f
01b1
fb4f
006f
fe88
ffb5
007d
ffc2
0597
037b
fc69
0158
ff62
01c7
05c9
ffd3
0020
fe67
01e2
fdbc
00f1
fed9
fb69
00db
0073
fdfa
00c8
012e
0323
012b
0368
fd17
003d
0059
028e
fe9a
fd58
0436
ff74
00a1
040e
01bc
fe3c
008d
ffd6
0016
fff1
025f
002d
028e
feb6
0098
0330
ff7b
01bd
0014
0056
ff05
ff6d
ffcc
0078
00c3
00e6
0007
fdbc
00cd
ffb8
01d2
00d0
0060
0010
fedf
0039
0184
006e
fbb0
fd7b
0024
0094
0047
03b9
fd29
ff50
01fa
ff75
015a
0320
01cf
00cc
009a
039a
fe61
ff7b
04ec
0234
01e7
008d
0124
0061
01a1
023b
00fc
fefc
fc85
01ac
01fe
0265
fff7
ff74
ffb2
0281
fee9
0248
0057
ff9a
fdff
0196
fdb3
fdbd
fccc
01f5
ff37
004e
fd09
ff82
0025
fd14
fc3f
fce7
fd27
fe27
febc
00fb
001d
ff8a
ff06
fb1c
00b0
0088
fec2
fb92
fdcf
0114
fec5
fea3
fdb2
fd7c
fba8
fb5c
fd35
01ea
f95d
ffdd
0184
fbd5
fd78
038b
026f
00c5
fe5b
0054
fd60
fe59
fbeb
fec2
ffd4
ffe6
01f7
fb65
ffab
fe6e
fa4a
ff98
ffcf
0116
fe09
fc03
fd79
fd59
02f5
fe2d
0062
0078
fead
fe9f
fdd8
0250
03dd
0109
fe3f
fbd6
0389
0038
01ea
0175
0251
0219
fdae
013f
fec3
ff82
ff0e
004f
fee4
0127
ffc0
ffda
033a
00c2
ff90
00d8
00f4
ff13
012c
029a
ffcc
006d
02a6
055e
026d
ffa8
00e5
01b6
02d0
fecc
00ff
017b
0369
014a
04f6
ff55
0107
067d
025a
ffd0
04e8
0069
fcc0
02ab
ff96
021c
043d
015e
ff34
04bd
ff7c
0054
0110
0081
032c
ffe0
fcf0
fd3b
017b
fe7c
ff56
ff23
0048
0247
fe1c
023a
fec0
008c
013f
ffb5
ffd9
ff8d
fcd4
fd6c
fda8
0005
0420
01ab
01d3
fdc1
ff58
fdfc
01e4
030b
ff50
fd75
010f
024e
0189
01ac
0159
ffb0
000a
ff8c
00c4
019c
ff55
0289
030a
0224
01fb
03f5
ff5a
fe9d
00dc
0326
0159
00ee
ffb1
016a
ffa6
ff67
fe3c
0041
fcc1
002b
fec3
fec3
ffa4
fd21
ffdd
ff8d
ffc4
ff03
fea7
f907
fe13
fc66
feab
ff14
000b
000c
fe2e
fcc1
ffb6
fd05
ff2d
ff23
fff2
ff54
fdbf
fed4
fc9c
ffed
fa9d
fb69
fee0
00c4
ff5f
fd91
fe3a
feba
fd68
ff19
fd20
fd85
fdd4
fe62
fe5e
fedd
00a8
fb97
fbd4
00a9
fcda
fe70
ff25
fe97
fb28
fd9d
ffd6
fe40
fc66
fe04
fee2
fdaa
002d
0077
0120
ff4d
0227
fe6c
fe8b
02d3
feb4
01fc
0190
0283
0185
0082
ff08
015b
fe9b
fe43
ff26
0011
00f7
fd7a
ffcc
01e3
fee8
01d1
001a
fea6
008a
000a
009f
0199
0391
0194
00d8
0239
0142
fe29
fe5b
001f
fd2b
0039
01ab
0445
fd0c
017f
fbb5
01ff
fe9f
0219
f99c
0049
ff70
fd82
035a
fe0d
fe96
00cf
0102
044d
0215
fcce
0166
fee8
fe7d
fc1b
fea2
ff52
ff42
ffd1
034a
02be
fecc
fdaa
fd9c
fe9d
013b
0337
fd04
fd9e
ffa2
fdd2
0264
fead
00e2
ff50
002a
0109
ffb1
febd
0126
fd8c
fabc
006b
00be
02fd
003d
fee1
0163
fe6b
01ac
fcad
fdbe
00d8
01b9
ff73
0024
fff7
00ec
0157
ff24
fe1d
fe9b
0230
fd41
0160
011e
00c3
fda7
027c
fe8a
feaf
ff05
ff1a
0201
0169
ffe4
ffe9
fe6a
ff30
ff79
02c2
ff9f
ff53
0030
011c
ff16
ff6a
ff7f
01a7
0116
ff28
fe02
ff97
003f
00ac
02a3
01fa
03fb
02a7
0141
fdf1
fcdb
febc
0090
0200
fd0f
ffd5
006e
ffbd
ff1c
fe7f
ff9d
fd82
020d
01ca
fff5
0252
008c
ff0c
00e0
019d
0180
004e
0106
00f1
036a
ff53
ff7f
024d
0048
0019
fdfe
00d0
00f7
ff48
0257
ff52
01b8
023f
0185
01e4
01ff
fc9f
fbf0
0369
010e
ff77
009a
ffdd
fe51
fd99
fe56
ff62
feda
02af
ff6f
00db
ff1f
ff55
00cb
fda8
fee6
fc77
fbde
045b
0192
fde1
fea6
ffc1
0043
ffef
03c4
0152
0291
fed3
0252
024d
fddd
fe69
060f
0325
0095
032d
0001
015b
fdfe
ff6a
ffd0
fd29
00e3
fedf
0045
0084
004c
0527
fe93
fe72
04c8
fe42
018a
03a4
0039
0270
01bc
fe10
02ba
fef0
fcd2
feaf
039a
ff2e
00a1
fcf2
feaa
005a
fe7c
feaf
012f
fe8c
00a5
026e
fff8
0150
01d0
fee0
fcd3
fed2
fdae
0027
02fa
009b
fea5
0251
fe6c
0189
fe39
ffe7
fea4
ff68
fe09
002b
fd4f
0115
01bf
fde5
0150
0057
fdb7
fd2c
ff40
fe3d
0096
ffa7
fe64
ff7c
00c0
004f
ff9b
021e
017b
009b
006e
0292
0082
0029
ffc4
fe67
fcdc
0010
fd8c
fef1
fe31
ff34
fff5
0164
ffdf
fea4
0253
fe92
fcf1
fd46
fedc
01cd
ff73
fbb0
fbb7
01d3
fd92
fd4a
fd76
fe4d
fc78
ff03
013e
fe84
feb0
ff12
ff21
fe01
fd08
febd
fb2a
ffec
fbcc
0058
ff92
fcc1
0051
fe80
fe01
fc0c
fbca
fe9b
fdf9
fd4a
0035
fdad
ff4d
fd19
fdf8
fcec
ffee
fe6f
feac
ff37
ff1b
ff2e
fe0a
ff1f
fe37
fe55
ff30
ff98
0054
03e3
ff24
00e1
0054
0014
fe22
011c
0067
fe92
fe43
feb6
024b
fe7b
0028
036a
0120
03f4
0130
ffa6
011f
00ea
028b
fd32
00d3
ff40
ffcc
0141
0018
0119
0087
ff3c
ff20
fd49
04db
020d
ffaf
0029
01ee
01bf
0322
fdbf
02b8
fffd
ffd7
01f9
ff2e
ff32
015d
0394
00d6
017b
0096
0206
ff96
fed6
ff66
0052
00da
02f0
00be
013a
02f5
0049
